11111111111111100
11111111111111100
11111111111111100
11111111111111100
11111111111111100
11111111111111100
11111111111111100
11111111111111100
11111111111111100
11111111111111100
11111111111111100
11111111111111100
11111111111111100
11111111111111100
11111111111111100
11111111111111100
11111111111111100
11111111111111100
11111111111111100
11111111111111100
11111111111111100
11111111111111100
11111111111111100
11111111111111100
11111111111111100
11111111111111100
11111111111111100
11111111111111100
11111111111111100
11111111111111100
11111111111111100
11111111111111100
11111111111111100
11111111111111100
11111111111111100
11111111111111100
11111111111111100
11111111111111100
11111111111111100
11111111111111100
11111111111111100
11111111111111100
11111111111111100
11111111111111100
11111111111111100
11111111111111100
11111111111111100
11111111111111100
11111111111111100
11111111111111100
11111111111111100
11111111111111100
11111111111111100
11111111111111100
11111111111111100
11111111111111100
11111111111111100
11111111111111100
11111111111111100
11111111111111100
11111111111111100
11111111111111100
11111111111111100
11111111111111100
11111111111111100
11111111111111100
11111111111111100
11111111111111100
11111111111111100
11111111111111100
11111111111111100
11111111111111100
11111111111111100
11111111111111100
11111111111111100
11111111111111100
11111111111111100
11111111111111100
11111111111111100
11111111111111100
11111111111111100
11111111111111100
11111111111111100
11111111111111100
11111111111111100
11111111111111100
11111111111111100
11111111111111100
11111111111111100
11111111111111100
11111111111111100
11111111111111100
11111111111111100
11111111111111100
11111111111111100
11111111111111100
11111111111111100
11111111111111100
11111111111111100
11111111111111100
11111111111111100
11111111111111100
11111111111111100
11111111111111100
11111111111111100
11111111111111100
11111111111111100
11111111111111100
11111111111111100
11111111111111100
11111111111111100
11111111111111100
11111111111111100
11111111111111100
11111111111111100
11111111111111100
11111111111111100
11111111111111100
11111111111111100
11111111111111100
11111111111111100
11111111111111100
11111111111111100
11111111111111100
11111111111111100
11111111111111100
11111111111111100
11111111111111100
11111111111111100
11111111111111100
11111111111111100
11111111111111100
11111111111111100
11111111111111100
11111111111111100
11111111111111100
11111111111111100
11111111111111100
11111111111111100
11111111111111100
11111111111111100
11111111111111100
11111111111111100
11111111111111100
11111111111111100
11111111111111100
11111111111111100
11111111111111100
11111111111111100
11111111111111100
11111111111111100
11111111111111100
11111111111111100
11111111111111100
11111111111111100
11111111111111100
11111111111111100
11111111111111100
11111111111111100
11111111111111100
11111111111111100
11111111111111100
11111111111111100
11111111111111100
11111111111111100
11111111111111100
11111111111111100
11111111111111100
11111111111111100
11111111111111100
11111111111111100
11111111111111100
11111111111111100
11111111111111100
11111111111111100
11111111111111100
11111111111111100
11111111111111100
11111111111111100
11111111111111100
11111111111111100
11111111111111100
11111111111111100
11111111111111100
11111111111111100
11111111111111100
11111111111111100
11111111111111100
11111111111111100
11111111111111100
11111111111111100
11111111111111100
11111111111111100
11111111111111100
11111111111111100
11111111111111100
11111111111111100
11111111111111100
11111111111111100
11111111111111100
11111111111111100
11111111111111100
11111111111111100
11111111111111100
11111111111111100
11111111111111100
11111111111111100
11111111111111100
11111111111111100
11111111111111100
11111111111111100
11111111111111100
11111111111111100
11111111111111100
11111111111111100
11111111111111100
11111111111111100
11111111111111100
11111111111111100
11111111111111100
11111111111111100
11111111111111100
11111111111111100
11111111111111100
11111111111111100
11111111111111100
11111111111111100
11111111111111100
11111111111111100
11111111111111100
11111111111111100
11111111111111100
11111111111111100
11111111111111100
11111111111111100
11111111111111100
11111111111111100
11111111111111100
11111111111111100
11111111111111100
11111111111111100
11111111111111100
11111111111111100
11111111111111100
11111111111111100
11111111111111100
11111111111111100
11111111111111100
11111111111111100
11111111111111100
11111111111111100
11111111111111100
11111111111111100
11111111111111100
11111111111111100
11111111111111100
11111111111111100
11111111111111100
11111111111111100
11111111111111100
11111111111111100
11111111111111100
11111111111111100
11111111111111100
11111111111111100
11111111111111100
11111111111111100
11111111111111100
11111111111111100
11111111111111100
11111111111111100
11111111111111100
11111111111111100
11111111111111100
11111111111111100
11111111111111100
11111111111111100
11111111111111100
11111111111111100
11111111111111100
11111111111111100
11111111111111100
11111111111111100
11111111111111100
11111111111111100
11111111111111100
11111111111111100
11111111111111100
11111111111111100
11111111111111100
11111111111111100
11111111111111100
11111111111111100
11111111111111100
11111111111111100
11111111111111100
11111111111111100
11111111111111100
11111111111111100
11111111111111100
11111111111111100
11111111111111100
11111111111111100
11111111111111100
11111111111111100
11111111111111100
11111111111111100
11111111111111100
11111111111111100
11111111111111100
11111111111111100
11111111111111100
11111111111111100
11111111111111100
11111111111111100
11111111111111100
11111111111111100
11111111111111100
11111111111111100
11111111111111100
11111111111111100
11111111111111100
11111111111111100
11111111111111100
11111111111111100
11111111111111100
11111111111111100
11111111111111100
11111111111111100
11111111111111100
11111111111111100
11111111111111100
11111111111111100
11111111111111100
11111111111111100
11111111111111100
11111111111111100
11111111111111100
11111111111111100
11111111111111100
11111111111111100
11111111111111100
11111111111111100
11111111111111100
11111111111111100
11111111111111100
11111111111111100
11111111111111100
11111111111111100
11111111111111100
11111111111111100
11111111111111100
11111111111111100
11111111111111100
11111111111111100
11111111111111100
11111111111111100
11111111111111100
11111111111111100
11111111111111100
11111111111111100
11111111111111100
11111111111111100
11111111111111100
11111111111111100
11111111111111100
11111111111111100
11111111111111100
11111111111111100
11111111111111100
11111111111111100
11111111111111100
11111111111111100
11111111111111100
11111111111111100
11111111111111100
11111111111111100
11111111111111100
11111111111111100
11111111111111100
11111111111111100
11111111111111100
11111111111111100
11111111111111100
11111111111111100
11111111111111100
11111111111111100
11111111111111100
11111111111111100
11111111111111100
11111111111111100
11111111111111100
11111111111111100
11111111111111100
11111111111111100
11111111111111100
11111111111111100
11111111111111100
11111111111111100
11111111111111100
11111111111111100
11111111111111100
11111111111111100
11111111111111100
11111111111111100
11111111111111100
11111111111111100
11111111111111100
11111111111111100
11111111111111100
11111111111111100
11111111111111100
11111111111111100
11111111111111100
11111111111111100
11111111111111100
11111111111111100
11111111111111100
11111111111111100
11111111111111100
11111111111111100
11111111111111100
11111111111111100
11111111111111100
11111111111111100
11111111111111100
11111111111111100
11111111111111100
11111111111111100
11111111111111100
11111111111111100
11111111111111100
11111111111111100
11111111111111100
11111111111111100
11111111111111100
11111111111111100
11111111111111100
11111111111111100
11111111111111100
11111111111111100
11111111111111100
11111111111111100
11111111111111100
11111111111111100
11111111111111100
11111111111111100
11111111111111100
11111111111111100
11111111111111100
11111111111111100
11111111111111100
11111111111111100
11111111111111100
11111111111111100
11111111111111100
11111111111111100
11111111111111100
11111111111111100
11111111111111100
11111111111111100
11111111111111100
11111111111111100
11111111111111100
11111111111111100
11111111111111100
11111111111111100
11111111111111100
11111111111111100
11111111111111100
11111111111111100
11111111111111100
11111111111111100
11111111111111100
11111111111111100
11111111111111100
11111111111111100
11111111111111100
11111111111111100
11111111111111100
11111111111111100
11111111111111100
11111111111111100
11111111111111100
11111111111111100
11111111111111100
11111111111111100
11111111111111100
11111111111111100
11111111111111100
11111111111111100
11111111111111100
11111111111111100
11111111111111100
11111111111111100
11111111111111100
11111111111111100
11111111111111100
11111111111111100
11111111111111100
11111111111111100
11111111111111100
11111111111111100
11111111111111100
11111111111111100
11111111111111100
11111111111111100
11111111111111100
11111111111111100
11111111111111100
11111111111111100
11111111111111100
11111111111111100
11111111111111100
11111111111111100
11111111111111100
11111111111111100
11111111111111100
11111111111111100
11111111111111100
11111111111111100
11111111111111100
11111111111111100
11111111111111100
11111111111111100
11111111111111100
11111111111111100
11111111111111100
11111111111111100
11111111111111100
11111111111111100
11111111111111100
11111111111111100
11111111111111100
11111111111111100
11111111111111100
11111111111111100
11111111111111100
11111111111111100
11111111111111100
11111111111111100
11111111111111100
11111111111111100
11111111111111100
11111111111111100
11111111111111100
11111111111111100
11111111111111100
11111111111111100
11111111111111100
11111111111111100
11111111111111100
11111111111111100
11111111111111100
11111111111111100
11111111111111100
11111111111111100
11111111111111100
11111111111111100
11111111111111100
11111111111111100
11111111111111100
11111111111111100
11111111111111100
11111111111111100
11111111111111100
11111111111111100
11111111111111100
11111111111111100
11111111111111100
11111111111111100
11111111111111100
11111111111111100
11111111111111100
11111111111111100
11111111111111100
11111111111111100
11111111111111100
11111111111111100
11111111111111100
11111111111111100
11111111111111100
11111111111111100
11111111111111100
11111111111111100
11111111111111100
11111111111111100
11111111111111100
11111111111111100
11111111111111100
11111111111111100
11111111111111100
11111111111111100
11111111111111100
11111111111111100
11111111111111100
11111111111111100
11111111111111100
11111111111111100
11111111111111100
11111111111111100
11111111111111100
11111111111111100
11111111111111100
11111111111111100
11111111111111100
11111111111111100
11111111111111100
11111111111111100
11111111111111100
11111111111111100
11111111111111100
11111111111111100
11111111111111100
11111111111111100
11111111111111100
11111111111111100
11111111111111100
11111111111111100
11111111111111100
11111111111111100
11111111111111100
11111111111111100
11111111111111100
11111111111111100
11111111111111100
11111111111111100
11111111111111100
11111111111111100
11111111111111100
11111111111111100
11111111111111100
11111111111111100
11111111111111100
11111111111111100
11111111111111100
11111111111111100
11111111111111100
11111111111111100
11111111111111100
11111111111111100
11111111111111100
11111111111111100
11111111111111100
11111111111111100
11111111111111100
11111111111111100
11111111111111100
11111111111111100
11111111111111100
11111111111111100
11111111111111100
11111111111111100
11111111111111100
11111111111111100
11111111111111100
11111111111111100
11111111111111100
11111111111111100
11111111111111100
11111111111111100
11111111111111100
11111111111111100
11111111111111100
11111111111111100
11111111111111100
11111111111111100
11111111111111100
11111111111111100
11111111111111100
11111111111111100
11111111111111100
11111111111111100
11111111111111100
11111111111111100
11111111111111100
11111111111111100
11111111111111100
11111111111111100
11111111111111100
11111111111111100
11111111111111100
11111111111111100
11111111111111100
11111111111111100
11111111111111100
11111111111111100
11111111111111100
11111111111111100
11111111111111100
11111111111111100
11111111111111100
11111111111111100
11111111111111100
11111111111111100
11111111111111100
11111111111111100
11111111111111100
11111111111111100
11111111111111100
11111111111111100
11111111111111100
11111111111111100
11111111111111100
11111111111111100
11111111111111100
11111111111111100
11111111111111100
11111111111111100
11111111111111100
11111111111111100
11111111111111100
11111111111111100
11111111111111100
11111111111111100
11111111111111100
11111111111111100
11111111111111100
11111111111111100
11111111111111100
11111111111111100
11111111111111100
11111111111111100
11111111111111100
11111111111111100
11111111111111100
11111111111111100
11111111111111100
11111111111111100
11111111111111100
11111111111111100
11111111111111100
11111111111111100
11111111111111100
11111111111111100
11111111111111100
11111111111111100
11111111111111100
11111111111111100
11111111111111100
11111111111111100
11111111111111100
11111111111111100
11111111111111100
11111111111111100
11111111111111100
11111111111111100
11111111111111100
11111111111111100
11111111111111100
11111111111111100
11111111111111100
11111111111111100
11111111111111100
11111111111111100
11111111111111100
11111111111111100
11111111111111100
11111111111111100
11111111111111100
11111111111111100
11111111111111100
11111111111111100
11111111111111100
11111111111111100
11111111111111100
11111111111111100
11111111111111100
11111111111111100
11111111111111100
11111111111111100
11111111111111100
11111111111111100
11111111111111100
11111111111111100
11111111111111100
11111111111111100
11111111111111100
11111111111111100
11111111111111100
11111111111111100
11111111111111100
11111111111111100
11111111111111100
11111111111111100
11111111111111100
11111111111111100
11111111111111100
11111111111111100
11111111111111100
11111111111111100
11111111111111100
11111111111111100
11111111111111100
11111111111111100
11111111111111100
11111111111111100
11111111111111100
11111111111111100
11111111111111100
11111111111111100
11111111111111100
11111111111111100
11111111111111100
11111111111111100
11111111111111100
11111111111111100
11111111111111100
11111111111111100
11111111111111100
11111111111111100
11111111111111100
11111111111111100
11111111111111100
11111111111111100
11111111111111100
11111111111111100
11111111111111100
11111111111111100
11111111111111100
11111111111111100
11111111111111100
11111111111111100
11111111111111100
11111111111111100
11111111111111100
11111111111111100
11111111111111100
11111111111111100
11111111111111100
11111111111111100
11111111111111100
11111111111111100
11111111111111100
11111111111111100
11111111111111100
11111111111111100
11111111111111100
11111111111111100
11111111111111100
11111111111111100
11111111111111100
11111111111111100
11111111111111100
11111111111111100
11111111111111100
11111111111111100
11111111111111100
11111111111111100
11111111111111100
11111111111111100
11111111111111100
11111111111111100
11111111111111100
11111111111111100
11111111111111100
11111111111111100
11111111111111100
11111111111111100
11111111111111100
11111111111111100
11111111111111100
11111111111111100
11111111111111100
11111111111111100
11111111111111100
11111111111111100
11111111111111100
11111111111111100
11111111111111100
11111111111111100
11111111111111100
11111111111111100
11111111111111100
11111111111111100
11111111111111100
11111111111111100
11111111111111100
11111111111111100
11111111111111100
11111111111111100
11111111111111100
11111111111111100
11111111111111100
11111111111111100
11111111111111100
11111111111111100
11111111111111100
11111111111111100
11111111111111100
11111111111111100
11111111111111100
11111111111111100
11111111111111100
11111111111111100
11111111111111100
11111111111111100
11111111111111100
11111111111111100
11111111111111100
11111111111111100
11111111111111100
11111111111111100
11111111111111100
11111111111111100
11111111111111100
11111111111111100
11111111111111100
11111111111111100
11111111111111100
11111111111111100
11111111111111100
11111111111111100
11111111111111100
11111111111111100
11111111111111100
11111111111111100
11111111111111100
11111111111111100
11111111111111100
11111111111111100
11111111111111100
11111111111111100
11111111111111100
11111111111111100
11111111111111100
11111111111111100
11111111111111100
11111111111111100
11111111111111100
11111111111111100
11111111111111100
11111111111111100
11111111111111100
11111111111111100
11111111111111100
11111111111111100
11111111111111011
11111111111111011
11111111111111011
11111111111111011
11111111111111011
11111111111111011
11111111111111011
11111111111111011
11111111111111011
11111111111111011
11111111111111011
11111111111111011
11111111111111011
11111111111111011
11111111111111011
11111111111111011
11111111111111011
11111111111111011
11111111111111011
11111111111111011
11111111111111011
11111111111111011
11111111111111011
11111111111111011
11111111111111011
11111111111111011
11111111111111011
11111111111111011
11111111111111011
11111111111111011
11111111111111011
11111111111111011
11111111111111011
11111111111111011
11111111111111011
11111111111111011
11111111111111011
11111111111111011
11111111111111011
11111111111111011
11111111111111011
11111111111111011
11111111111111011
11111111111111011
11111111111111011
11111111111111011
11111111111111011
11111111111111011
11111111111111011
11111111111111011
11111111111111011
11111111111111011
11111111111111011
11111111111111011
11111111111111011
11111111111111011
11111111111111011
11111111111111011
11111111111111011
11111111111111011
11111111111111011
11111111111111011
11111111111111011
11111111111111011
11111111111111011
11111111111111011
11111111111111011
11111111111111011
11111111111111011
11111111111111011
11111111111111011
11111111111111011
11111111111111011
11111111111111011
11111111111111011
11111111111111011
11111111111111011
11111111111111011
11111111111111011
11111111111111011
11111111111111011
11111111111111011
11111111111111011
11111111111111011
11111111111111011
11111111111111011
11111111111111011
11111111111111011
11111111111111011
11111111111111011
11111111111111011
11111111111111011
11111111111111011
11111111111111011
11111111111111011
11111111111111011
11111111111111011
11111111111111011
11111111111111011
11111111111111011
11111111111111011
11111111111111011
11111111111111011
11111111111111011
11111111111111011
11111111111111011
11111111111111011
11111111111111011
11111111111111011
11111111111111011
11111111111111011
11111111111111011
11111111111111011
11111111111111011
11111111111111011
11111111111111011
11111111111111011
11111111111111011
11111111111111011
11111111111111011
11111111111111011
11111111111111011
11111111111111011
11111111111111011
11111111111111011
11111111111111011
11111111111111011
11111111111111011
11111111111111011
11111111111111011
11111111111111011
11111111111111011
11111111111111011
11111111111111011
11111111111111011
11111111111111011
11111111111111011
11111111111111011
11111111111111011
11111111111111011
11111111111111011
11111111111111011
11111111111111011
11111111111111011
11111111111111011
11111111111111011
11111111111111011
11111111111111011
11111111111111011
11111111111111011
11111111111111011
11111111111111011
11111111111111011
11111111111111011
11111111111111011
11111111111111011
11111111111111011
11111111111111011
11111111111111011
11111111111111011
11111111111111011
11111111111111011
11111111111111011
11111111111111011
11111111111111011
11111111111111011
11111111111111011
11111111111111011
11111111111111011
11111111111111011
11111111111111011
11111111111111011
11111111111111011
11111111111111011
11111111111111011
11111111111111011
11111111111111011
11111111111111011
11111111111111011
11111111111111011
11111111111111011
11111111111111011
11111111111111011
11111111111111011
11111111111111011
11111111111111011
11111111111111011
11111111111111011
11111111111111011
11111111111111011
11111111111111011
11111111111111011
11111111111111011
11111111111111011
11111111111111011
11111111111111011
11111111111111011
11111111111111011
11111111111111011
11111111111111011
11111111111111011
11111111111111011
11111111111111011
11111111111111011
11111111111111011
11111111111111011
11111111111111011
11111111111111011
11111111111111011
11111111111111011
11111111111111011
11111111111111011
11111111111111011
11111111111111011
11111111111111011
11111111111111011
11111111111111011
11111111111111011
11111111111111011
11111111111111011
11111111111111011
11111111111111011
11111111111111011
11111111111111011
11111111111111011
11111111111111011
11111111111111011
11111111111111011
11111111111111011
11111111111111011
11111111111111011
11111111111111011
11111111111111011
11111111111111011
11111111111111011
11111111111111011
11111111111111011
11111111111111011
11111111111111011
11111111111111011
11111111111111011
11111111111111011
11111111111111011
11111111111111011
11111111111111011
11111111111111011
11111111111111011
11111111111111011
11111111111111011
11111111111111011
11111111111111011
11111111111111011
11111111111111011
11111111111111011
11111111111111011
11111111111111011
11111111111111011
11111111111111011
11111111111111011
11111111111111011
11111111111111011
11111111111111011
11111111111111011
11111111111111011
11111111111111011
11111111111111011
11111111111111011
11111111111111011
11111111111111011
11111111111111011
11111111111111011
11111111111111011
11111111111111011
11111111111111011
11111111111111011
11111111111111011
11111111111111011
11111111111111011
11111111111111011
11111111111111011
11111111111111011
11111111111111011
11111111111111011
11111111111111011
11111111111111011
11111111111111011
11111111111111011
11111111111111011
11111111111111011
11111111111111011
11111111111111011
11111111111111011
11111111111111011
11111111111111011
11111111111111011
11111111111111011
11111111111111011
11111111111111011
11111111111111011
11111111111111011
11111111111111011
11111111111111011
11111111111111011
11111111111111011
11111111111111011
11111111111111011
11111111111111011
11111111111111011
11111111111111011
11111111111111011
11111111111111011
11111111111111011
11111111111111011
11111111111111011
11111111111111011
11111111111111011
11111111111111011
11111111111111011
11111111111111011
11111111111111011
11111111111111011
11111111111111011
11111111111111011
11111111111111011
11111111111111011
11111111111111011
11111111111111011
11111111111111011
11111111111111011
11111111111111011
11111111111111011
11111111111111011
11111111111111011
11111111111111011
11111111111111011
11111111111111011
11111111111111011
11111111111111011
11111111111111011
11111111111111011
11111111111111011
11111111111111011
11111111111111011
11111111111111011
11111111111111011
11111111111111011
11111111111111011
11111111111111011
11111111111111011
11111111111111011
11111111111111011
11111111111111011
11111111111111011
11111111111111011
11111111111111011
11111111111111011
11111111111111011
11111111111111011
11111111111111011
11111111111111011
11111111111111011
11111111111111011
11111111111111011
11111111111111011
11111111111111011
11111111111111011
11111111111111011
11111111111111011
11111111111111011
11111111111111011
11111111111111011
11111111111111011
11111111111111011
11111111111111011
11111111111111011
11111111111111011
11111111111111011
11111111111111011
11111111111111011
11111111111111011
11111111111111011
11111111111111011
11111111111111011
11111111111111011
11111111111111011
11111111111111011
11111111111111011
11111111111111011
11111111111111011
11111111111111011
11111111111111011
11111111111111011
11111111111111011
11111111111111011
11111111111111011
11111111111111011
11111111111111011
11111111111111011
11111111111111011
11111111111111011
11111111111111011
11111111111111011
11111111111111011
11111111111111011
11111111111111011
11111111111111011
11111111111111011
11111111111111011
11111111111111011
11111111111111011
11111111111111011
11111111111111011
11111111111111011
11111111111111011
11111111111111011
11111111111111011
11111111111111011
11111111111111011
11111111111111011
11111111111111011
11111111111111011
11111111111111011
11111111111111011
11111111111111011
11111111111111011
11111111111111011
11111111111111011
11111111111111011
11111111111111011
11111111111111011
11111111111111011
11111111111111011
11111111111111011
11111111111111011
11111111111111011
11111111111111011
11111111111111011
11111111111111011
11111111111111011
11111111111111011
11111111111111011
11111111111111011
11111111111111011
11111111111111011
11111111111111011
11111111111111011
11111111111111011
11111111111111011
11111111111111011
11111111111111011
11111111111111011
11111111111111011
11111111111111011
11111111111111011
11111111111111011
11111111111111011
11111111111111011
11111111111111011
11111111111111011
11111111111111011
11111111111111011
11111111111111011
11111111111111011
11111111111111011
11111111111111011
11111111111111011
11111111111111011
11111111111111011
11111111111111011
11111111111111011
11111111111111011
11111111111111011
11111111111111011
11111111111111011
11111111111111011
11111111111111011
11111111111111011
11111111111111011
11111111111111011
11111111111111011
11111111111111011
11111111111111011
11111111111111011
11111111111111011
11111111111111011
11111111111111011
11111111111111011
11111111111111011
11111111111111011
11111111111111011
11111111111111011
11111111111111011
11111111111111011
11111111111111011
11111111111111011
11111111111111011
11111111111111011
11111111111111011
11111111111111011
11111111111111011
11111111111111011
11111111111111011
11111111111111011
11111111111111011
11111111111111011
11111111111111011
11111111111111011
11111111111111011
11111111111111011
11111111111111011
11111111111111011
11111111111111011
11111111111111011
11111111111111011
11111111111111011
11111111111111011
11111111111111011
11111111111111011
11111111111111011
11111111111111011
11111111111111011
11111111111111011
11111111111111011
11111111111111011
11111111111111011
11111111111111011
11111111111111011
11111111111111011
11111111111111011
11111111111111011
11111111111111011
11111111111111011
11111111111111011
11111111111111011
11111111111111011
11111111111111011
11111111111111011
11111111111111011
11111111111111011
11111111111111011
11111111111111011
11111111111111011
11111111111111011
11111111111111011
11111111111111011
11111111111111011
11111111111111011
11111111111111011
11111111111111011
11111111111111011
11111111111111011
11111111111111011
11111111111111011
11111111111111011
11111111111111011
11111111111111011
11111111111111011
11111111111111011
11111111111111011
11111111111111011
11111111111111011
11111111111111011
11111111111111011
11111111111111011
11111111111111011
11111111111111011
11111111111111011
11111111111111011
11111111111111011
11111111111111011
11111111111111011
11111111111111011
11111111111111011
11111111111111011
11111111111111011
11111111111111011
11111111111111011
11111111111111011
11111111111111011
11111111111111011
11111111111111011
11111111111111011
11111111111111011
11111111111111011
11111111111111011
11111111111111011
11111111111111011
11111111111111011
11111111111111011
11111111111111011
11111111111111011
11111111111111011
11111111111111011
11111111111111011
11111111111111011
11111111111111011
11111111111111011
11111111111111011
11111111111111011
11111111111111011
11111111111111011
11111111111111011
11111111111111011
11111111111111011
11111111111111011
11111111111111011
11111111111111011
11111111111111011
11111111111111011
11111111111111011
11111111111111011
11111111111111011
11111111111111011
11111111111111011
11111111111111011
11111111111111011
11111111111111011
11111111111111011
11111111111111011
11111111111111011
11111111111111011
11111111111111011
11111111111111011
11111111111111011
11111111111111011
11111111111111011
11111111111111011
11111111111111011
11111111111111011
11111111111111011
11111111111111011
11111111111111011
11111111111111011
11111111111111011
11111111111111011
11111111111111011
11111111111111011
11111111111111011
11111111111111011
11111111111111011
11111111111111011
11111111111111011
11111111111111011
11111111111111011
11111111111111011
11111111111111011
11111111111111011
11111111111111011
11111111111111011
11111111111111011
11111111111111011
11111111111111011
11111111111111011
11111111111111011
11111111111111011
11111111111111011
11111111111111011
11111111111111011
11111111111111011
11111111111111011
11111111111111011
11111111111111011
11111111111111011
11111111111111011
11111111111111011
11111111111111011
11111111111111011
11111111111111011
11111111111111011
11111111111111011
11111111111111011
11111111111111011
11111111111111011
11111111111111011
11111111111111011
11111111111111011
11111111111111011
11111111111111011
11111111111111011
11111111111111011
11111111111111011
11111111111111011
11111111111111011
11111111111111011
11111111111111011
11111111111111011
11111111111111011
11111111111111011
11111111111111011
11111111111111011
11111111111111011
11111111111111011
11111111111111011
11111111111111011
11111111111111011
11111111111111011
11111111111111011
11111111111111011
11111111111111011
11111111111111011
11111111111111011
11111111111111011
11111111111111011
11111111111111011
11111111111111011
11111111111111011
11111111111111011
11111111111111011
11111111111111011
11111111111111011
11111111111111011
11111111111111011
11111111111111011
11111111111111011
11111111111111011
11111111111111011
11111111111111011
11111111111111011
11111111111111011
11111111111111011
11111111111111011
11111111111111011
11111111111111011
11111111111111011
11111111111111011
11111111111111011
11111111111111011
11111111111111011
11111111111111011
11111111111111011
11111111111111011
11111111111111011
11111111111111011
11111111111111011
11111111111111011
11111111111111011
11111111111111011
11111111111111011
11111111111111011
11111111111111011
11111111111111011
11111111111111011
11111111111111011
11111111111111011
11111111111111011
11111111111111011
11111111111111011
11111111111111011
11111111111111011
11111111111111011
11111111111111011
11111111111111011
11111111111111011
11111111111111011
11111111111111011
11111111111111011
11111111111111011
11111111111111011
11111111111111011
11111111111111011
11111111111111011
11111111111111011
11111111111111011
11111111111111011
11111111111111011
11111111111111011
11111111111111011
11111111111111011
11111111111111011
11111111111111011
11111111111111011
11111111111111011
11111111111111011
11111111111111011
11111111111111011
11111111111111011
11111111111111011
11111111111111011
11111111111111011
11111111111111011
11111111111111011
11111111111111011
11111111111111011
11111111111111011
11111111111111011
11111111111111011
11111111111111011
11111111111111011
11111111111111011
11111111111111011
11111111111111011
11111111111111011
11111111111111011
11111111111111011
11111111111111011
11111111111111011
11111111111111011
11111111111111011
11111111111111011
11111111111111011
11111111111111011
11111111111111011
11111111111111011
11111111111111011
11111111111111011
11111111111111011
11111111111111011
11111111111111011
11111111111111011
11111111111111011
11111111111111011
11111111111111011
11111111111111011
11111111111111011
11111111111111011
11111111111111011
11111111111111011
11111111111111011
11111111111111011
11111111111111011
11111111111111011
11111111111111011
11111111111111011
11111111111111011
11111111111111011
11111111111111011
11111111111111011
11111111111111011
11111111111111011
11111111111111011
11111111111111011
11111111111111011
11111111111111011
11111111111111011
11111111111111011
11111111111111011
11111111111111011
11111111111111011
11111111111111011
11111111111111011
11111111111111011
11111111111111011
11111111111111011
11111111111111011
11111111111111011
11111111111111011
11111111111111011
11111111111111011
11111111111111011
11111111111111011
11111111111111011
11111111111111011
11111111111111011
11111111111111011
11111111111111011
11111111111111011
11111111111111011
11111111111111011
11111111111111011
11111111111111011
11111111111111011
11111111111111011
11111111111111011
11111111111111011
11111111111111011
11111111111111011
11111111111111011
11111111111111011
11111111111111011
11111111111111011
11111111111111011
11111111111111011
11111111111111011
11111111111111011
11111111111111011
11111111111111011
11111111111111011
11111111111111011
11111111111111011
11111111111111011
11111111111111011
11111111111111011
11111111111111011
11111111111111011
11111111111111011
11111111111111011
11111111111111011
11111111111111011
11111111111111011
11111111111111011
11111111111111011
11111111111111011
11111111111111011
11111111111111011
11111111111111011
11111111111111011
11111111111111011
11111111111111011
11111111111111011
11111111111111011
11111111111111011
11111111111111011
11111111111111011
11111111111111011
11111111111111011
11111111111111011
11111111111111011
11111111111111011
11111111111111011
11111111111111011
11111111111111011
11111111111111011
11111111111111011
11111111111111011
11111111111111011
11111111111111011
11111111111111011
11111111111111011
11111111111111011
11111111111111011
11111111111111011
11111111111111011
11111111111111011
11111111111111011
11111111111111011
11111111111111011
11111111111111011
11111111111111011
11111111111111011
11111111111111011
11111111111111011
11111111111111011
11111111111111011
11111111111111011
11111111111111011
11111111111111011
11111111111111011
11111111111111011
11111111111111011
11111111111111011
11111111111111011
11111111111111011
11111111111111011
11111111111111011
11111111111111011
11111111111111011
11111111111111011
11111111111111011
11111111111111011
11111111111111011
11111111111111011
11111111111111011
11111111111111011
11111111111111011
11111111111111011
11111111111111011
11111111111111011
11111111111111011
11111111111111011
11111111111111011
11111111111111011
11111111111111011
11111111111111011
11111111111111011
11111111111111011
11111111111111011
11111111111111011
11111111111111011
11111111111111011
11111111111111011
11111111111111011
11111111111111011
11111111111111011
11111111111111011
11111111111111011
11111111111111011
11111111111111011
11111111111111011
11111111111111011
11111111111111011
11111111111111011
11111111111111011
11111111111111011
11111111111111011
11111111111111011
11111111111111011
11111111111111011
11111111111111011
11111111111111011
11111111111111011
11111111111111011
11111111111111011
11111111111111011
11111111111111011
11111111111111011
11111111111111011
11111111111111011
11111111111111011
11111111111111011
11111111111111011
11111111111111011
11111111111111011
11111111111111011
11111111111111011
11111111111111011
11111111111111011
11111111111111011
11111111111111011
11111111111111011
11111111111111011
11111111111111011
11111111111111011
11111111111111011
11111111111111011
11111111111111011
11111111111111011
11111111111111011
11111111111111011
11111111111111011
11111111111111011
11111111111111011
11111111111111011
11111111111111011
11111111111111011
11111111111111011
11111111111111011
11111111111111011
11111111111111011
11111111111111011
11111111111111011
11111111111111011
11111111111111011
11111111111111011
11111111111111011
11111111111111011
11111111111111011
11111111111111011
11111111111111011
11111111111111011
11111111111111011
11111111111111011
11111111111111011
11111111111111011
11111111111111011
11111111111111011
11111111111111011
11111111111111011
11111111111111011
11111111111111011
11111111111111011
11111111111111011
11111111111111011
11111111111111011
11111111111111011
11111111111111011
11111111111111011
11111111111111011
11111111111111011
11111111111111011
11111111111111011
11111111111111011
11111111111111011
11111111111111011
11111111111111011
11111111111111011
11111111111111011
11111111111111011
11111111111111011
11111111111111011
11111111111111011
11111111111111011
11111111111111011
11111111111111011
11111111111111011
11111111111111011
11111111111111011
11111111111111011
11111111111111011
11111111111111011
11111111111111011
11111111111111011
11111111111111011
11111111111111011
11111111111111011
11111111111111011
11111111111111011
11111111111111011
11111111111111011
11111111111111011
11111111111111011
11111111111111011
11111111111111011
11111111111111011
11111111111111011
11111111111111011
11111111111111011
11111111111111011
11111111111111011
11111111111111011
11111111111111011
11111111111111011
11111111111111011
11111111111111011
11111111111111011
11111111111111011
11111111111111011
11111111111111011
11111111111111011
11111111111111011
11111111111111011
11111111111111011
11111111111111011
11111111111111011
11111111111111011
11111111111111011
11111111111111011
11111111111111011
11111111111111011
11111111111111011
11111111111111011
11111111111111011
11111111111111011
11111111111111011
11111111111111011
11111111111111011
11111111111111011
11111111111111011
11111111111111011
11111111111111011
11111111111111011
11111111111111011
11111111111111011
11111111111111011
11111111111111011
11111111111111011
11111111111111011
11111111111111011
11111111111111011
11111111111111011
11111111111111011
11111111111111011
11111111111111011
11111111111111011
11111111111111011
11111111111111011
11111111111111011
11111111111111011
11111111111111011
11111111111111011
11111111111111011
11111111111111011
11111111111111011
11111111111111011
11111111111111011
11111111111111011
11111111111111011
11111111111111011
11111111111111011
11111111111111011
11111111111111011
11111111111111011
11111111111111011
11111111111111011
11111111111111011
11111111111111011
11111111111111011
11111111111111011
11111111111111011
11111111111111011
11111111111111011
11111111111111011
11111111111111011
11111111111111011
11111111111111011
11111111111111011
11111111111111011
11111111111111011
11111111111111011
11111111111111011
11111111111111011
11111111111111011
11111111111111011
11111111111111011
11111111111111011
11111111111111011
11111111111111011
11111111111111011
11111111111111011
11111111111111011
11111111111111011
11111111111111011
11111111111111011
11111111111111011
11111111111111011
11111111111111011
11111111111111011
11111111111111011
11111111111111011
11111111111111011
11111111111111011
11111111111111011
11111111111111011
11111111111111011
11111111111111011
11111111111111011
11111111111111011
11111111111111011
11111111111111011
11111111111111011
11111111111111011
11111111111111011
11111111111111011
11111111111111011
11111111111111011
11111111111111011
11111111111111011
11111111111111011
11111111111111011
11111111111111011
11111111111111011
11111111111111011
11111111111111011
11111111111111011
11111111111111011
11111111111111011
11111111111111011
11111111111111011
11111111111111011
11111111111111011
11111111111111011
11111111111111011
11111111111111011
11111111111111011
11111111111111011
11111111111111011
11111111111111011
11111111111111011
11111111111111011
11111111111111011
11111111111111011
11111111111111011
11111111111111011
11111111111111011
11111111111111011
11111111111111011
11111111111111011
11111111111111011
11111111111111011
11111111111111011
11111111111111011
11111111111111011
11111111111111011
11111111111111011
11111111111111011
11111111111111011
11111111111111011
11111111111111011
11111111111111011
11111111111111011
11111111111111011
11111111111111011
11111111111111011
11111111111111011
11111111111111011
11111111111111011
11111111111111011
11111111111111011
11111111111111011
11111111111111011
11111111111111011
11111111111111011
11111111111111011
11111111111111011
11111111111111011
11111111111111011
11111111111111011
11111111111111011
11111111111111011
11111111111111011
11111111111111011
11111111111111011
11111111111111011
11111111111111011
11111111111111011
11111111111111011
11111111111111011
11111111111111011
11111111111111011
11111111111111011
11111111111111011
11111111111111011
11111111111111011
11111111111111011
11111111111111011
11111111111111011
11111111111111011
11111111111111011
11111111111111011
11111111111111011
11111111111111011
11111111111111011
11111111111111011
11111111111111011
11111111111111011
11111111111111011
11111111111111011
11111111111111011
11111111111111011
11111111111111011
11111111111111011
11111111111111011
11111111111111011
11111111111111011
11111111111111011
11111111111111011
11111111111111011
11111111111111011
11111111111111011
11111111111111011
11111111111111011
11111111111111011
11111111111111011
11111111111111011
11111111111111011
11111111111111011
11111111111111011
11111111111111011
11111111111111011
11111111111111011
11111111111111011
11111111111111011
11111111111111011
11111111111111011
11111111111111011
11111111111111011
11111111111111011
11111111111111011
11111111111111011
11111111111111011
11111111111111011
11111111111111011
11111111111111011
11111111111111011
11111111111111011
11111111111111011
11111111111111011
11111111111111011
11111111111111011
11111111111111011
11111111111111011
11111111111111011
11111111111111011
11111111111111011
11111111111111011
11111111111111011
11111111111111011
11111111111111011
11111111111111011
11111111111111011
11111111111111011
11111111111111011
11111111111111011
11111111111111011
11111111111111011
11111111111111011
11111111111111011
11111111111111011
11111111111111011
11111111111111011
11111111111111011
11111111111111011
11111111111111011
11111111111111011
11111111111111011
11111111111111011
11111111111111011
11111111111111011
11111111111111011
11111111111111011
11111111111111011
11111111111111011
11111111111111011
11111111111111011
11111111111111011
11111111111111011
11111111111111011
11111111111111011
11111111111111011
11111111111111011
11111111111111011
11111111111111011
11111111111111011
11111111111111011
11111111111111011
11111111111111011
11111111111111011
11111111111111011
11111111111111011
11111111111111011
11111111111111011
11111111111111011
11111111111111011
11111111111111011
11111111111111011
11111111111111011
11111111111111011
11111111111111011
11111111111111011
11111111111111011
11111111111111011
11111111111111011
11111111111111011
11111111111111011
11111111111111011
11111111111111011
11111111111111011
11111111111111011
11111111111111011
11111111111111011
11111111111111011
11111111111111011
11111111111111011
11111111111111011
11111111111111011
11111111111111011
11111111111111011
11111111111111011
11111111111111011
11111111111111011
11111111111111011
11111111111111011
11111111111111011
11111111111111011
11111111111111011
11111111111111011
11111111111111011
11111111111111011
11111111111111011
11111111111111011
11111111111111011
11111111111111011
11111111111111011
11111111111111011
11111111111111011
11111111111111011
11111111111111011
11111111111111011
11111111111111011
11111111111111011
11111111111111011
11111111111111011
11111111111111011
11111111111111011
11111111111111011
11111111111111011
11111111111111011
11111111111111011
11111111111111011
11111111111111011
11111111111111011
11111111111111011
11111111111111011
11111111111111011
11111111111111011
11111111111111011
11111111111111011
11111111111111011
11111111111111011
11111111111111011
11111111111111011
11111111111111011
11111111111111011
11111111111111011
11111111111111011
11111111111111011
11111111111111011
11111111111111011
11111111111111011
11111111111111011
11111111111111011
11111111111111011
11111111111111011
11111111111111011
11111111111111011
11111111111111011
11111111111111011
11111111111111011
11111111111111011
11111111111111011
11111111111111011
11111111111111011
11111111111111011
11111111111111011
11111111111111011
11111111111111011
11111111111111011
11111111111111011
11111111111111011
11111111111111011
11111111111111011
11111111111111011
11111111111111011
11111111111111011
11111111111111011
11111111111111011
11111111111111011
11111111111111011
11111111111111011
11111111111111011
11111111111111011
11111111111111011
11111111111111011
11111111111111011
11111111111111011
11111111111111011
11111111111111011
11111111111111011
11111111111111011
11111111111111011
11111111111111011
11111111111111011
11111111111111011
11111111111111011
11111111111111011
11111111111111011
11111111111111011
11111111111111011
11111111111111011
11111111111111011
11111111111111011
11111111111111011
11111111111111011
11111111111111011
11111111111111011
11111111111111011
11111111111111011
11111111111111011
11111111111111011
11111111111111011
11111111111111011
11111111111111011
11111111111111011
11111111111111011
11111111111111011
11111111111111011
11111111111111011
11111111111111011
11111111111111011
11111111111111011
11111111111111011
11111111111111011
11111111111111011
11111111111111011
11111111111111011
11111111111111011
11111111111111011
11111111111111011
11111111111111011
11111111111111011
11111111111111011
11111111111111011
11111111111111011
11111111111111011
11111111111111011
11111111111111011
11111111111111011
11111111111111011
11111111111111011
11111111111111011
11111111111111011
11111111111111011
11111111111111011
11111111111111011
11111111111111011
11111111111111011
11111111111111011
11111111111111011
11111111111111011
11111111111111011
11111111111111011
11111111111111011
11111111111111011
11111111111111011
11111111111111011
11111111111111011
11111111111111011
11111111111111011
11111111111111011
11111111111111011
11111111111111011
11111111111111011
11111111111111011
11111111111111011
11111111111111011
11111111111111011
11111111111111011
11111111111111011
11111111111111011
11111111111111011
11111111111111011
11111111111111011
11111111111111011
11111111111111011
11111111111111011
11111111111111011
11111111111111011
11111111111111011
11111111111111011
11111111111111011
11111111111111011
11111111111111011
11111111111111011
11111111111111011
11111111111111011
11111111111111011
11111111111111011
11111111111111011
11111111111111011
11111111111111011
11111111111111011
11111111111111011
11111111111111011
11111111111111011
11111111111111011
11111111111111011
11111111111111011
11111111111111011
11111111111111011
11111111111111011
11111111111111011
11111111111111011
11111111111111011
11111111111111011
11111111111111011
11111111111111011
11111111111111011
11111111111111011
11111111111111011
11111111111111011
11111111111111011
11111111111111011
11111111111111011
11111111111111011
11111111111111011
11111111111111011
11111111111111011
11111111111111011
11111111111111011
11111111111111011
11111111111111011
11111111111111011
11111111111111011
11111111111111011
11111111111111011
11111111111111011
11111111111111011
11111111111111011
11111111111111011
11111111111111011
11111111111111011
11111111111111011
11111111111111011
11111111111111011
11111111111111011
11111111111111011
11111111111111011
11111111111111011
11111111111111011
11111111111111011
11111111111111011
11111111111111011
11111111111111011
11111111111111011
11111111111111011
11111111111111011
11111111111111011
11111111111111011
11111111111111011
11111111111111011
11111111111111011
11111111111111011
11111111111111011
11111111111111011
11111111111111011
11111111111111011
11111111111111011
11111111111111011
11111111111111011
11111111111111011
11111111111111011
11111111111111011
11111111111111011
11111111111111011
11111111111111011
11111111111111011
11111111111111011
11111111111111011
11111111111111011
11111111111111011
11111111111111011
11111111111111011
11111111111111011
11111111111111011
11111111111111011
11111111111111011
11111111111111011
11111111111111011
11111111111111011
11111111111111011
11111111111111011
11111111111111011
11111111111111011
11111111111111011
11111111111111011
11111111111111011
11111111111111011
11111111111111011
11111111111111011
11111111111111011
11111111111111011
11111111111111011
11111111111111011
11111111111111011
11111111111111011
11111111111111011
11111111111111011
11111111111111011
11111111111111011
11111111111111011
11111111111111011
11111111111111011
11111111111111011
11111111111111011
11111111111111011
11111111111111011
11111111111111011
11111111111111011
11111111111111011
11111111111111011
11111111111111011
11111111111111011
11111111111111011
11111111111111011
11111111111111011
11111111111111011
11111111111111011
11111111111111011
11111111111111011
11111111111111011
11111111111111011
11111111111111011
11111111111111011
11111111111111011
11111111111111011
11111111111111011
11111111111111011
11111111111111011
11111111111111011
11111111111111011
11111111111111011
11111111111111011
11111111111111011
11111111111111011
11111111111111011
11111111111111011
11111111111111011
11111111111111011
11111111111111011
11111111111111011
11111111111111011
11111111111111011
11111111111111011
11111111111111011
11111111111111011
11111111111111011
11111111111111011
11111111111111011
11111111111111011
11111111111111011
11111111111111011
11111111111111011
11111111111111011
11111111111111011
11111111111111011
11111111111111011
11111111111111011
11111111111111011
11111111111111011
11111111111111011
11111111111111011
11111111111111011
11111111111111011
11111111111111011
11111111111111011
11111111111111011
11111111111111011
11111111111111011
11111111111111011
11111111111111011
11111111111111011
11111111111111011
11111111111111011
11111111111111011
11111111111111011
11111111111111011
11111111111111011
11111111111111011
11111111111111011
11111111111111011
11111111111111011
11111111111111011
11111111111111011
11111111111111011
11111111111111011
11111111111111011
11111111111111011
11111111111111011
11111111111111011
11111111111111011
11111111111111011
11111111111111011
11111111111111011
11111111111111011
11111111111111011
11111111111111011
11111111111111011
11111111111111011
11111111111111011
11111111111111011
11111111111111011
11111111111111011
11111111111111011
11111111111111011
11111111111111011
11111111111111011
11111111111111011
11111111111111011
11111111111111011
11111111111111011
11111111111111011
11111111111111011
11111111111111011
11111111111111011
11111111111111011
11111111111111011
11111111111111011
11111111111111011
11111111111111011
11111111111111011
11111111111111011
11111111111111011
11111111111111011
11111111111111011
11111111111111011
11111111111111011
11111111111111011
11111111111111011
11111111111111011
11111111111111011
11111111111111011
11111111111111011
11111111111111011
11111111111111011
11111111111111011
11111111111111011
11111111111111011
11111111111111011
11111111111111011
11111111111111011
11111111111111011
11111111111111011
11111111111111011
11111111111111011
11111111111111011
11111111111111011
11111111111111011
11111111111111011
11111111111111011
11111111111111011
11111111111111011
11111111111111011
11111111111111011
11111111111111011
11111111111111011
11111111111111011
11111111111111011
11111111111111011
11111111111111011
11111111111111011
11111111111111011
11111111111111011
11111111111111011
11111111111111011
11111111111111011
11111111111111011
11111111111111011
11111111111111011
11111111111111011
11111111111111011
11111111111111011
11111111111111011
11111111111111011
11111111111111011
11111111111111011
11111111111111011
11111111111111011
11111111111111011
11111111111111011
11111111111111011
11111111111111011
11111111111111011
11111111111111011
11111111111111011
11111111111111011
11111111111111011
11111111111111011
11111111111111011
11111111111111011
11111111111111011
11111111111111011
11111111111111011
11111111111111011
11111111111111011
11111111111111011
11111111111111011
11111111111111011
11111111111111011
11111111111111011
11111111111111011
11111111111111011
11111111111111011
11111111111111011
11111111111111011
11111111111111011
11111111111111011
11111111111111011
11111111111111011
11111111111111011
11111111111111011
11111111111111011
11111111111111011
11111111111111011
11111111111111011
11111111111111011
11111111111111011
11111111111111011
11111111111111011
11111111111111011
11111111111111011
11111111111111011
11111111111111011
11111111111111011
11111111111111011
11111111111111011
11111111111111011
11111111111111011
11111111111111011
11111111111111011
11111111111111011
11111111111111011
11111111111111011
11111111111111011
11111111111111011
11111111111111011
11111111111111011
11111111111111011
11111111111111011
11111111111111011
11111111111111011
11111111111111011
11111111111111011
11111111111111011
11111111111111011
11111111111111011
11111111111111011
11111111111111011
11111111111111011
11111111111111011
11111111111111011
11111111111111011
11111111111111011
11111111111111011
11111111111111011
11111111111111011
11111111111111011
11111111111111011
11111111111111011
11111111111111011
11111111111111011
11111111111111011
11111111111111011
11111111111111011
11111111111111011
11111111111111011
11111111111111011
11111111111111011
11111111111111011
11111111111111011
11111111111111011
11111111111111011
11111111111111011
11111111111111011
11111111111111011
11111111111111011
11111111111111011
11111111111111011
11111111111111011
11111111111111011
11111111111111011
11111111111111011
11111111111111011
11111111111111011
11111111111111011
11111111111111011
11111111111111011
11111111111111011
11111111111111011
11111111111111011
11111111111111011
11111111111111011
11111111111111011
11111111111111011
11111111111111011
11111111111111011
11111111111111011
11111111111111011
11111111111111011
11111111111111011
11111111111111011
11111111111111011
11111111111111011
11111111111111011
11111111111111011
11111111111111011
11111111111111011
11111111111111011
11111111111111011
11111111111111011
11111111111111011
11111111111111011
11111111111111011
11111111111111011
11111111111111011
11111111111111011
11111111111111011
11111111111111011
11111111111111011
11111111111111011
11111111111111011
11111111111111011
11111111111111011
11111111111111011
11111111111111011
11111111111111011
11111111111111011
11111111111111011
11111111111111011
11111111111111011
11111111111111011
11111111111111011
11111111111111011
11111111111111011
11111111111111011
11111111111111011
11111111111111011
11111111111111011
11111111111111011
11111111111111011
11111111111111011
11111111111111011
11111111111111011
11111111111111011
11111111111111011
11111111111111011
11111111111111011
11111111111111011
11111111111111011
11111111111111011
11111111111111011
11111111111111011
11111111111111011
11111111111111011
11111111111111011
11111111111111011
11111111111111011
11111111111111011
11111111111111011
11111111111111011
11111111111111011
11111111111111011
11111111111111011
11111111111111011
11111111111111011
11111111111111011
11111111111111011
11111111111111011
11111111111111011
11111111111111011
11111111111111011
11111111111111011
11111111111111011
11111111111111011
11111111111111011
11111111111111011
11111111111111011
11111111111111011
11111111111111011
11111111111111011
11111111111111011
11111111111111011
11111111111111011
11111111111111011
11111111111111011
11111111111111011
11111111111111011
11111111111111011
11111111111111011
11111111111111011
11111111111111011
11111111111111011
11111111111111011
11111111111111011
11111111111111011
11111111111111011
11111111111111011
11111111111111011
11111111111111011
11111111111111011
11111111111111011
11111111111111011
11111111111111011
11111111111111011
11111111111111011
11111111111111011
11111111111111011
11111111111111011
11111111111111011
11111111111111011
11111111111111011
11111111111111011
11111111111111011
11111111111111011
11111111111111011
11111111111111011
11111111111111011
11111111111111011
11111111111111011
11111111111111011
11111111111111011
11111111111111011
11111111111111011
11111111111111011
11111111111111011
11111111111111011
11111111111111011
11111111111111011
11111111111111011
11111111111111011
11111111111111011
11111111111111011
11111111111111011
11111111111111011
11111111111111011
11111111111111011
11111111111111011
11111111111111011
11111111111111011
11111111111111011
11111111111111011
11111111111111011
11111111111111011
11111111111111011
11111111111111011
11111111111111011
11111111111111011
11111111111111011
11111111111111011
11111111111111011
11111111111111011
11111111111111011
11111111111111011
11111111111111011
11111111111111011
11111111111111011
11111111111111011
11111111111111011
11111111111111011
11111111111111011
11111111111111011
11111111111111011
11111111111111011
11111111111111011
11111111111111011
11111111111111011
11111111111111011
11111111111111011
11111111111111011
11111111111111011
11111111111111011
11111111111111011
11111111111111011
11111111111111011
11111111111111011
11111111111111011
11111111111111011
11111111111111011
11111111111111011
11111111111111011
11111111111111011
11111111111111011
11111111111111011
11111111111111011
11111111111111011
11111111111111011
11111111111111011
11111111111111011
11111111111111011
11111111111111011
11111111111111011
11111111111111011
11111111111111011
11111111111111011
11111111111111011
11111111111111011
11111111111111011
11111111111111011
11111111111111011
11111111111111011
11111111111111011
11111111111111011
11111111111111011
11111111111111011
11111111111111011
11111111111111011
11111111111111011
11111111111111011
11111111111111011
11111111111111011
11111111111111011
11111111111111011
11111111111111011
11111111111111011
11111111111111011
11111111111111011
11111111111111011
11111111111111011
11111111111111011
11111111111111011
11111111111111011
11111111111111011
11111111111111011
11111111111111011
11111111111111011
11111111111111011
11111111111111011
11111111111111011
11111111111111011
11111111111111011
11111111111111011
11111111111111011
11111111111111011
11111111111111011
11111111111111011
11111111111111011
11111111111111011
11111111111111011
11111111111111011
11111111111111011
11111111111111011
11111111111111011
11111111111111011
11111111111111011
11111111111111011
11111111111111011
11111111111111011
11111111111111011
11111111111111011
11111111111111011
11111111111111011
11111111111111011
11111111111111011
11111111111111011
11111111111111011
11111111111111011
11111111111111011
11111111111111011
11111111111111011
11111111111111011
11111111111111011
11111111111111011
11111111111111011
11111111111111011
11111111111111011
11111111111111011
11111111111111011
11111111111111011
11111111111111011
11111111111111011
11111111111111011
11111111111111011
11111111111111011
11111111111111011
11111111111111011
11111111111111011
11111111111111011
11111111111111011
11111111111111011
11111111111111011
11111111111111011
11111111111111011
11111111111111011
11111111111111011
11111111111111011
11111111111111011
11111111111111011
11111111111111011
11111111111111011
11111111111111011
11111111111111011
11111111111111011
11111111111111011
11111111111111011
11111111111111011
11111111111111011
11111111111111011
11111111111111011
11111111111111011
11111111111111011
11111111111111011
11111111111111011
11111111111111011
11111111111111011
11111111111111011
11111111111111011
11111111111111011
11111111111111011
11111111111111011
11111111111111011
11111111111111011
11111111111111011
11111111111111011
11111111111111011
11111111111111011
11111111111111011
11111111111111011
11111111111111011
11111111111111011
11111111111111011
11111111111111011
11111111111111011
11111111111111011
11111111111111011
11111111111111011
11111111111111011
11111111111111011
11111111111111011
11111111111111011
11111111111111011
11111111111111011
11111111111111011
11111111111111011
11111111111111011
11111111111111011
11111111111111011
11111111111111011
11111111111111011
11111111111111011
11111111111111011
11111111111111011
11111111111111011
11111111111111011
11111111111111011
11111111111111011
11111111111111011
11111111111111011
11111111111111011
11111111111111011
11111111111111011
11111111111111011
11111111111111011
11111111111111011
11111111111111011
11111111111111011
11111111111111011
11111111111111011
11111111111111011
11111111111111011
11111111111111011
11111111111111011
11111111111111011
11111111111111011
11111111111111011
11111111111111011
11111111111111011
11111111111111011
11111111111111011
11111111111111011
11111111111111011
11111111111111011
11111111111111011
11111111111111011
11111111111111011
11111111111111011
11111111111111011
11111111111111011
11111111111111011
11111111111111011
11111111111111011
11111111111111011
11111111111111011
11111111111111011
11111111111111011
11111111111111011
11111111111111011
11111111111111011
11111111111111011
11111111111111011
11111111111111011
11111111111111011
11111111111111011
11111111111111011
11111111111111011
11111111111111011
11111111111111011
11111111111111011
11111111111111011
11111111111111011
11111111111111011
11111111111111011
11111111111111011
11111111111111011
11111111111111011
11111111111111011
11111111111111011
11111111111111011
11111111111111011
11111111111111011
11111111111111011
11111111111111011
11111111111111011
11111111111111011
11111111111111011
11111111111111011
11111111111111011
11111111111111011
11111111111111011
11111111111111011
11111111111111011
11111111111111011
11111111111111011
11111111111111011
11111111111111011
11111111111111011
11111111111111011
11111111111111011
11111111111111011
11111111111111011
11111111111111011
11111111111111011
11111111111111010
11111111111111010
11111111111111010
11111111111111010
11111111111111010
11111111111111010
11111111111111010
11111111111111010
11111111111111010
11111111111111010
11111111111111010
11111111111111010
11111111111111010
11111111111111010
11111111111111010
11111111111111010
11111111111111010
11111111111111010
11111111111111010
11111111111111010
11111111111111010
11111111111111010
11111111111111010
11111111111111010
11111111111111010
11111111111111010
11111111111111010
11111111111111010
11111111111111010
11111111111111010
11111111111111010
11111111111111010
11111111111111010
11111111111111010
11111111111111010
11111111111111010
11111111111111010
11111111111111010
11111111111111010
11111111111111010
11111111111111010
11111111111111010
11111111111111010
11111111111111010
11111111111111010
11111111111111010
11111111111111010
11111111111111010
11111111111111010
11111111111111010
11111111111111010
11111111111111010
11111111111111010
11111111111111010
11111111111111010
11111111111111010
11111111111111010
11111111111111010
11111111111111010
11111111111111010
11111111111111010
11111111111111010
11111111111111010
11111111111111010
11111111111111010
11111111111111010
11111111111111010
11111111111111010
11111111111111010
11111111111111010
11111111111111010
11111111111111010
11111111111111010
11111111111111010
11111111111111010
11111111111111010
11111111111111010
11111111111111010
11111111111111010
11111111111111010
11111111111111010
11111111111111010
11111111111111010
11111111111111010
11111111111111010
11111111111111010
11111111111111010
11111111111111010
11111111111111010
11111111111111010
11111111111111010
11111111111111010
11111111111111010
11111111111111010
11111111111111010
11111111111111010
11111111111111010
11111111111111010
11111111111111010
11111111111111010
11111111111111010
11111111111111010
11111111111111010
11111111111111010
11111111111111010
11111111111111010
11111111111111010
11111111111111010
11111111111111010
11111111111111010
11111111111111010
11111111111111010
11111111111111010
11111111111111010
11111111111111010
11111111111111010
11111111111111010
11111111111111010
11111111111111010
11111111111111010
11111111111111010
11111111111111010
11111111111111010
11111111111111010
11111111111111010
11111111111111010
11111111111111010
11111111111111010
11111111111111010
11111111111111010
11111111111111010
11111111111111010
11111111111111010
11111111111111010
11111111111111010
11111111111111010
11111111111111010
11111111111111010
11111111111111010
11111111111111010
11111111111111010
11111111111111010
11111111111111010
11111111111111010
11111111111111010
11111111111111010
11111111111111010
11111111111111010
11111111111111010
11111111111111010
11111111111111010
11111111111111010
11111111111111010
11111111111111010
11111111111111010
11111111111111010
11111111111111010
11111111111111010
11111111111111010
11111111111111010
11111111111111010
11111111111111010
11111111111111010
11111111111111010
11111111111111010
11111111111111010
11111111111111010
11111111111111010
11111111111111010
11111111111111010
11111111111111010
11111111111111010
11111111111111010
11111111111111010
11111111111111010
11111111111111010
11111111111111010
11111111111111010
11111111111111010
11111111111111010
11111111111111010
11111111111111010
11111111111111010
11111111111111010
11111111111111010
11111111111111010
11111111111111010
11111111111111010
11111111111111010
11111111111111010
11111111111111010
11111111111111010
11111111111111010
11111111111111010
11111111111111010
11111111111111010
11111111111111010
11111111111111010
11111111111111010
11111111111111010
11111111111111010
11111111111111010
11111111111111010
11111111111111010
11111111111111010
11111111111111010
11111111111111010
11111111111111010
11111111111111010
11111111111111010
11111111111111010
11111111111111010
11111111111111010
11111111111111010
11111111111111010
11111111111111010
11111111111111010
11111111111111010
11111111111111010
11111111111111010
11111111111111010
11111111111111010
11111111111111010
11111111111111010
11111111111111010
11111111111111010
11111111111111010
11111111111111010
11111111111111010
11111111111111010
11111111111111010
11111111111111010
11111111111111010
11111111111111010
11111111111111010
11111111111111010
11111111111111010
11111111111111010
11111111111111010
11111111111111010
11111111111111010
11111111111111010
11111111111111010
11111111111111010
11111111111111010
11111111111111010
11111111111111010
11111111111111010
11111111111111010
11111111111111010
11111111111111010
11111111111111010
11111111111111010
11111111111111010
11111111111111010
11111111111111010
11111111111111010
11111111111111010
11111111111111010
11111111111111010
11111111111111010
11111111111111010
11111111111111010
11111111111111010
11111111111111010
11111111111111010
11111111111111010
11111111111111010
11111111111111010
11111111111111010
11111111111111010
11111111111111010
11111111111111010
11111111111111010
11111111111111010
11111111111111010
11111111111111010
11111111111111010
11111111111111010
11111111111111010
11111111111111010
11111111111111010
11111111111111010
11111111111111010
11111111111111010
11111111111111010
11111111111111010
11111111111111010
11111111111111010
11111111111111010
11111111111111010
11111111111111010
11111111111111010
11111111111111010
11111111111111010
11111111111111010
11111111111111010
11111111111111010
11111111111111010
11111111111111010
11111111111111010
11111111111111010
11111111111111010
11111111111111010
11111111111111010
11111111111111010
11111111111111010
11111111111111010
11111111111111010
11111111111111010
11111111111111010
11111111111111010
11111111111111010
11111111111111010
11111111111111010
11111111111111010
11111111111111010
11111111111111010
11111111111111010
11111111111111010
11111111111111010
11111111111111010
11111111111111010
11111111111111010
11111111111111010
11111111111111010
11111111111111010
11111111111111010
11111111111111010
11111111111111010
11111111111111010
11111111111111010
11111111111111010
11111111111111010
11111111111111010
11111111111111010
11111111111111010
11111111111111010
11111111111111010
11111111111111010
11111111111111010
11111111111111010
11111111111111010
11111111111111010
11111111111111010
11111111111111010
11111111111111010
11111111111111010
11111111111111010
11111111111111010
11111111111111010
11111111111111010
11111111111111010
11111111111111010
11111111111111010
11111111111111010
11111111111111010
11111111111111010
11111111111111010
11111111111111010
11111111111111010
11111111111111010
11111111111111010
11111111111111010
11111111111111010
11111111111111010
11111111111111010
11111111111111010
11111111111111010
11111111111111010
11111111111111010
11111111111111010
11111111111111010
11111111111111010
11111111111111010
11111111111111010
11111111111111010
11111111111111010
11111111111111010
11111111111111010
11111111111111010
11111111111111010
11111111111111010
11111111111111010
11111111111111010
11111111111111010
11111111111111010
11111111111111010
11111111111111010
11111111111111010
11111111111111010
11111111111111010
11111111111111010
11111111111111010
11111111111111010
11111111111111010
11111111111111010
11111111111111010
11111111111111010
11111111111111010
11111111111111010
11111111111111010
11111111111111010
11111111111111010
11111111111111010
11111111111111010
11111111111111010
11111111111111010
11111111111111010
11111111111111010
11111111111111010
11111111111111010
11111111111111010
11111111111111010
11111111111111010
11111111111111010
11111111111111010
11111111111111010
11111111111111010
11111111111111010
11111111111111010
11111111111111010
11111111111111010
11111111111111010
11111111111111010
11111111111111010
11111111111111010
11111111111111010
11111111111111010
11111111111111010
11111111111111010
11111111111111010
11111111111111010
11111111111111010
11111111111111010
11111111111111010
11111111111111010
11111111111111010
11111111111111010
11111111111111010
11111111111111010
11111111111111010
11111111111111010
11111111111111010
11111111111111010
11111111111111010
11111111111111010
11111111111111010
11111111111111010
11111111111111010
11111111111111010
11111111111111010
11111111111111010
11111111111111010
11111111111111010
11111111111111010
11111111111111010
11111111111111010
11111111111111010
11111111111111010
11111111111111010
11111111111111010
11111111111111010
11111111111111010
11111111111111010
11111111111111010
11111111111111010
11111111111111010
11111111111111010
11111111111111010
11111111111111010
11111111111111010
11111111111111010
11111111111111010
11111111111111010
11111111111111010
11111111111111010
11111111111111010
11111111111111010
11111111111111010
11111111111111010
11111111111111010
11111111111111010
11111111111111010
11111111111111010
11111111111111010
11111111111111010
11111111111111010
11111111111111010
11111111111111010
11111111111111010
11111111111111010
11111111111111010
11111111111111010
11111111111111010
11111111111111010
11111111111111010
11111111111111010
11111111111111010
11111111111111010
11111111111111010
11111111111111010
11111111111111010
11111111111111010
11111111111111010
11111111111111010
11111111111111010
11111111111111010
11111111111111010
11111111111111010
11111111111111010
11111111111111010
11111111111111010
11111111111111010
11111111111111010
11111111111111010
11111111111111010
11111111111111010
11111111111111010
11111111111111010
11111111111111010
11111111111111010
11111111111111010
11111111111111010
11111111111111010
11111111111111010
11111111111111010
11111111111111010
11111111111111010
11111111111111010
11111111111111010
11111111111111010
11111111111111010
11111111111111010
11111111111111010
11111111111111010
11111111111111010
11111111111111010
11111111111111010
11111111111111010
11111111111111010
11111111111111010
11111111111111010
11111111111111010
11111111111111010
11111111111111010
11111111111111010
11111111111111010
11111111111111010
11111111111111010
11111111111111010
11111111111111010
11111111111111010
11111111111111010
11111111111111010
11111111111111010
11111111111111010
11111111111111010
11111111111111010
11111111111111010
11111111111111010
11111111111111010
11111111111111010
11111111111111010
11111111111111010
11111111111111010
11111111111111010
11111111111111010
11111111111111010
11111111111111010
11111111111111010
11111111111111010
11111111111111010
11111111111111010
11111111111111010
11111111111111010
11111111111111010
11111111111111010
11111111111111010
11111111111111010
11111111111111010
11111111111111010
11111111111111010
11111111111111010
11111111111111010
11111111111111010
11111111111111010
11111111111111010
11111111111111010
11111111111111010
11111111111111010
11111111111111010
11111111111111010
11111111111111010
11111111111111010
11111111111111010
11111111111111010
11111111111111010
11111111111111010
11111111111111010
11111111111111010
11111111111111010
11111111111111010
11111111111111010
11111111111111010
11111111111111010
11111111111111010
11111111111111010
11111111111111010
11111111111111010
11111111111111010
11111111111111010
11111111111111010
11111111111111010
11111111111111010
11111111111111010
11111111111111010
11111111111111010
11111111111111010
11111111111111010
11111111111111010
11111111111111010
11111111111111010
11111111111111010
11111111111111010
11111111111111010
11111111111111010
11111111111111010
11111111111111010
11111111111111010
11111111111111010
11111111111111010
11111111111111010
11111111111111010
11111111111111010
11111111111111010
11111111111111010
11111111111111010
11111111111111010
11111111111111010
11111111111111010
11111111111111010
11111111111111010
11111111111111010
11111111111111010
11111111111111010
11111111111111010
11111111111111010
11111111111111010
11111111111111010
11111111111111010
11111111111111010
11111111111111010
11111111111111010
11111111111111010
11111111111111010
11111111111111010
11111111111111010
11111111111111010
11111111111111010
11111111111111010
11111111111111010
11111111111111010
11111111111111010
11111111111111010
11111111111111010
11111111111111010
11111111111111010
11111111111111010
11111111111111010
11111111111111010
11111111111111010
11111111111111010
11111111111111010
11111111111111010
11111111111111010
11111111111111010
11111111111111010
11111111111111010
11111111111111010
11111111111111010
11111111111111010
11111111111111010
11111111111111010
11111111111111010
11111111111111010
11111111111111010
11111111111111010
11111111111111010
11111111111111010
11111111111111010
11111111111111010
11111111111111010
11111111111111010
11111111111111010
11111111111111010
11111111111111010
11111111111111010
11111111111111010
11111111111111010
11111111111111010
11111111111111010
11111111111111010
11111111111111010
11111111111111010
11111111111111010
11111111111111010
11111111111111010
11111111111111010
11111111111111010
11111111111111010
11111111111111010
11111111111111010
11111111111111010
11111111111111010
11111111111111010
11111111111111010
11111111111111010
11111111111111010
11111111111111010
11111111111111010
11111111111111010
11111111111111010
11111111111111010
11111111111111010
11111111111111010
11111111111111010
11111111111111010
11111111111111010
11111111111111010
11111111111111010
11111111111111010
11111111111111010
11111111111111010
11111111111111010
11111111111111010
11111111111111010
11111111111111010
11111111111111010
11111111111111010
11111111111111010
11111111111111010
11111111111111010
11111111111111010
11111111111111010
11111111111111010
11111111111111010
11111111111111010
11111111111111010
11111111111111010
11111111111111010
11111111111111010
11111111111111010
11111111111111010
11111111111111010
11111111111111010
11111111111111010
11111111111111010
11111111111111010
11111111111111010
11111111111111010
11111111111111010
11111111111111010
11111111111111010
11111111111111010
11111111111111010
11111111111111010
11111111111111010
11111111111111010
11111111111111010
11111111111111010
11111111111111010
11111111111111010
11111111111111010
11111111111111010
11111111111111010
11111111111111010
11111111111111010
11111111111111010
11111111111111010
11111111111111010
11111111111111010
11111111111111010
11111111111111010
11111111111111010
11111111111111010
11111111111111010
11111111111111010
11111111111111010
11111111111111010
11111111111111010
11111111111111010
11111111111111010
11111111111111010
11111111111111010
11111111111111010
11111111111111010
11111111111111010
11111111111111010
11111111111111010
11111111111111010
11111111111111010
11111111111111010
11111111111111010
11111111111111010
11111111111111010
11111111111111010
11111111111111010
11111111111111010
11111111111111010
11111111111111010
11111111111111010
11111111111111010
11111111111111010
11111111111111010
11111111111111010
11111111111111010
11111111111111010
11111111111111010
11111111111111010
11111111111111010
11111111111111010
11111111111111010
11111111111111010
11111111111111010
11111111111111010
11111111111111010
11111111111111010
11111111111111010
11111111111111010
11111111111111010
11111111111111010
11111111111111010
11111111111111010
11111111111111010
11111111111111010
11111111111111010
11111111111111010
11111111111111010
11111111111111010
11111111111111010
11111111111111010
11111111111111010
11111111111111010
11111111111111010
11111111111111010
11111111111111010
11111111111111010
11111111111111010
11111111111111010
11111111111111010
11111111111111010
11111111111111010
11111111111111010
11111111111111010
11111111111111010
11111111111111010
11111111111111010
11111111111111010
11111111111111010
11111111111111010
11111111111111010
11111111111111010
11111111111111010
11111111111111010
11111111111111010
11111111111111010
11111111111111010
11111111111111010
11111111111111010
11111111111111010
11111111111111010
11111111111111010
11111111111111010
11111111111111010
11111111111111010
11111111111111010
11111111111111010
11111111111111010
11111111111111010
11111111111111010
11111111111111010
11111111111111010
11111111111111010
11111111111111010
11111111111111010
11111111111111010
11111111111111010
11111111111111010
11111111111111010
11111111111111010
11111111111111010
11111111111111010
11111111111111010
11111111111111010
11111111111111010
11111111111111010
11111111111111010
11111111111111010
11111111111111010
11111111111111010
11111111111111010
11111111111111010
11111111111111010
11111111111111010
11111111111111010
11111111111111010
11111111111111010
11111111111111010
11111111111111010
11111111111111010
11111111111111010
11111111111111010
11111111111111010
11111111111111010
11111111111111010
11111111111111010
11111111111111010
11111111111111010
11111111111111010
11111111111111010
11111111111111010
11111111111111010
11111111111111010
11111111111111010
11111111111111010
11111111111111010
11111111111111010
11111111111111010
11111111111111010
11111111111111010
11111111111111010
11111111111111010
11111111111111010
11111111111111010
11111111111111010
11111111111111010
11111111111111010
11111111111111010
11111111111111010
11111111111111010
11111111111111010
11111111111111010
11111111111111010
11111111111111010
11111111111111010
11111111111111010
11111111111111010
11111111111111010
11111111111111010
11111111111111010
11111111111111010
11111111111111010
11111111111111010
11111111111111010
11111111111111010
11111111111111010
11111111111111010
11111111111111010
11111111111111010
11111111111111010
11111111111111010
11111111111111010
11111111111111010
11111111111111010
11111111111111010
11111111111111010
11111111111111010
11111111111111010
11111111111111010
11111111111111010
11111111111111010
11111111111111010
11111111111111010
11111111111111010
11111111111111010
11111111111111010
11111111111111010
11111111111111010
11111111111111010
11111111111111010
11111111111111010
11111111111111010
11111111111111010
11111111111111010
11111111111111010
11111111111111010
11111111111111010
11111111111111010
11111111111111010
11111111111111010
11111111111111010
11111111111111010
11111111111111010
11111111111111010
11111111111111010
11111111111111010
11111111111111010
11111111111111010
11111111111111010
11111111111111010
11111111111111010
11111111111111010
11111111111111010
11111111111111010
11111111111111010
11111111111111010
11111111111111010
11111111111111010
11111111111111010
11111111111111010
11111111111111010
11111111111111010
11111111111111010
11111111111111010
11111111111111010
11111111111111010
11111111111111010
11111111111111010
11111111111111010
11111111111111010
11111111111111010
11111111111111010
11111111111111010
11111111111111010
11111111111111010
11111111111111010
11111111111111010
11111111111111010
11111111111111010
11111111111111010
11111111111111010
11111111111111010
11111111111111010
11111111111111010
11111111111111010
11111111111111010
11111111111111010
11111111111111010
11111111111111010
11111111111111010
11111111111111010
11111111111111010
11111111111111010
11111111111111010
11111111111111010
11111111111111010
11111111111111010
11111111111111010
11111111111111010
11111111111111010
11111111111111010
11111111111111010
11111111111111010
11111111111111010
11111111111111010
11111111111111010
11111111111111010
11111111111111010
11111111111111010
11111111111111010
11111111111111010
11111111111111010
11111111111111010
11111111111111010
11111111111111010
11111111111111010
11111111111111010
11111111111111010
11111111111111010
11111111111111010
11111111111111010
11111111111111010
11111111111111010
11111111111111010
11111111111111010
11111111111111010
11111111111111010
11111111111111010
11111111111111010
11111111111111010
11111111111111010
11111111111111010
11111111111111010
11111111111111010
11111111111111010
11111111111111010
11111111111111010
11111111111111010
11111111111111010
11111111111111010
11111111111111010
11111111111111010
11111111111111010
11111111111111010
11111111111111010
11111111111111010
11111111111111010
11111111111111010
11111111111111010
11111111111111010
11111111111111010
11111111111111010
11111111111111010
11111111111111010
11111111111111010
11111111111111010
11111111111111010
11111111111111010
11111111111111010
11111111111111010
11111111111111010
11111111111111010
11111111111111010
11111111111111010
11111111111111010
11111111111111010
11111111111111010
11111111111111010
11111111111111010
11111111111111010
11111111111111010
11111111111111010
11111111111111010
11111111111111010
11111111111111010
11111111111111010
11111111111111010
11111111111111010
11111111111111010
11111111111111010
11111111111111010
11111111111111010
11111111111111010
11111111111111010
11111111111111010
11111111111111010
11111111111111010
11111111111111010
11111111111111010
11111111111111010
11111111111111010
11111111111111010
11111111111111010
11111111111111010
11111111111111010
11111111111111010
11111111111111010
11111111111111010
11111111111111010
11111111111111010
11111111111111010
11111111111111010
11111111111111010
11111111111111010
11111111111111010
11111111111111010
11111111111111010
11111111111111010
11111111111111010
11111111111111010
11111111111111010
11111111111111010
11111111111111010
11111111111111010
11111111111111010
11111111111111010
11111111111111010
11111111111111010
11111111111111010
11111111111111010
11111111111111010
11111111111111010
11111111111111010
11111111111111010
11111111111111010
11111111111111010
11111111111111010
11111111111111010
11111111111111010
11111111111111010
11111111111111010
11111111111111010
11111111111111010
11111111111111010
11111111111111010
11111111111111010
11111111111111010
11111111111111010
11111111111111010
11111111111111010
11111111111111010
11111111111111010
11111111111111010
11111111111111010
11111111111111010
11111111111111010
11111111111111010
11111111111111010
11111111111111010
11111111111111010
11111111111111010
11111111111111010
11111111111111010
11111111111111010
11111111111111010
11111111111111010
11111111111111010
11111111111111010
11111111111111010
11111111111111010
11111111111111010
11111111111111010
11111111111111010
11111111111111010
11111111111111010
11111111111111010
11111111111111010
11111111111111010
11111111111111010
11111111111111010
11111111111111010
11111111111111010
11111111111111010
11111111111111010
11111111111111010
11111111111111010
11111111111111010
11111111111111010
11111111111111010
11111111111111010
11111111111111010
11111111111111010
11111111111111010
11111111111111010
11111111111111010
11111111111111010
11111111111111010
11111111111111010
11111111111111010
11111111111111010
11111111111111010
11111111111111010
11111111111111010
11111111111111010
11111111111111010
11111111111111010
11111111111111010
11111111111111010
11111111111111010
11111111111111010
11111111111111010
11111111111111010
11111111111111010
11111111111111010
11111111111111010
11111111111111010
11111111111111010
11111111111111010
11111111111111010
11111111111111010
11111111111111010
11111111111111010
11111111111111010
11111111111111010
11111111111111010
11111111111111010
11111111111111010
11111111111111010
11111111111111010
11111111111111010
11111111111111010
11111111111111010
11111111111111010
11111111111111010
11111111111111010
11111111111111010
11111111111111010
11111111111111010
11111111111111010
11111111111111010
11111111111111010
11111111111111010
11111111111111010
11111111111111010
11111111111111010
11111111111111010
11111111111111010
11111111111111010
11111111111111010
11111111111111010
11111111111111010
11111111111111010
11111111111111010
11111111111111010
11111111111111010
11111111111111010
11111111111111010
11111111111111010
11111111111111010
11111111111111010
11111111111111010
11111111111111010
11111111111111010
11111111111111010
11111111111111010
11111111111111010
11111111111111010
11111111111111010
11111111111111010
11111111111111010
11111111111111010
11111111111111010
11111111111111010
11111111111111010
11111111111111010
11111111111111010
11111111111111010
11111111111111010
11111111111111010
11111111111111010
11111111111111010
11111111111111010
11111111111111010
11111111111111010
11111111111111010
11111111111111010
11111111111111010
11111111111111010
11111111111111010
11111111111111010
11111111111111010
11111111111111010
11111111111111010
11111111111111010
11111111111111010
11111111111111010
11111111111111010
11111111111111010
11111111111111010
11111111111111010
11111111111111010
11111111111111010
11111111111111010
11111111111111010
11111111111111010
11111111111111010
11111111111111010
11111111111111010
11111111111111010
11111111111111010
11111111111111010
11111111111111010
11111111111111010
11111111111111010
11111111111111010
11111111111111010
11111111111111010
11111111111111010
11111111111111010
11111111111111010
11111111111111010
11111111111111010
11111111111111010
11111111111111010
11111111111111010
11111111111111010
11111111111111010
11111111111111010
11111111111111010
11111111111111010
11111111111111010
11111111111111010
11111111111111010
11111111111111010
11111111111111010
11111111111111010
11111111111111010
11111111111111010
11111111111111010
11111111111111010
11111111111111010
11111111111111010
11111111111111010
11111111111111010
11111111111111010
11111111111111010
11111111111111010
11111111111111010
11111111111111010
11111111111111010
11111111111111010
11111111111111010
11111111111111010
11111111111111010
11111111111111010
11111111111111010
11111111111111010
11111111111111010
11111111111111010
11111111111111010
11111111111111010
11111111111111010
11111111111111010
11111111111111010
11111111111111010
11111111111111010
11111111111111010
11111111111111010
11111111111111010
11111111111111010
11111111111111010
11111111111111010
11111111111111010
11111111111111010
11111111111111010
11111111111111010
11111111111111010
11111111111111010
11111111111111010
11111111111111010
11111111111111010
11111111111111010
11111111111111010
11111111111111010
11111111111111010
11111111111111010
11111111111111010
11111111111111010
11111111111111010
11111111111111010
11111111111111010
11111111111111010
11111111111111010
11111111111111010
11111111111111010
11111111111111010
11111111111111010
11111111111111010
11111111111111010
11111111111111010
11111111111111010
11111111111111010
11111111111111010
11111111111111010
11111111111111010
11111111111111010
11111111111111010
11111111111111010
11111111111111010
11111111111111010
11111111111111010
11111111111111010
11111111111111010
11111111111111010
11111111111111010
11111111111111010
11111111111111010
11111111111111010
11111111111111010
11111111111111010
11111111111111010
11111111111111010
11111111111111010
11111111111111010
11111111111111010
11111111111111010
11111111111111010
11111111111111010
11111111111111010
11111111111111010
11111111111111010
11111111111111010
11111111111111010
11111111111111010
11111111111111010
11111111111111010
11111111111111010
11111111111111010
11111111111111010
11111111111111010
11111111111111010
11111111111111010
11111111111111010
11111111111111010
11111111111111010
11111111111111010
11111111111111010
11111111111111010
11111111111111010
11111111111111010
11111111111111010
11111111111111010
11111111111111010
11111111111111010
11111111111111010
11111111111111010
11111111111111010
11111111111111010
11111111111111010
11111111111111010
11111111111111010
11111111111111010
11111111111111010
11111111111111010
11111111111111010
11111111111111010
11111111111111010
11111111111111010
11111111111111010
11111111111111010
11111111111111010
11111111111111010
11111111111111010
11111111111111010
11111111111111010
11111111111111010
11111111111111010
11111111111111010
11111111111111010
11111111111111010
11111111111111010
11111111111111010
11111111111111010
11111111111111010
11111111111111010
11111111111111010
11111111111111010
11111111111111010
11111111111111010
11111111111111010
11111111111111010
11111111111111010
11111111111111010
11111111111111010
11111111111111010
11111111111111010
11111111111111010
11111111111111010
11111111111111010
11111111111111010
11111111111111010
11111111111111010
11111111111111010
11111111111111010
11111111111111010
11111111111111010
11111111111111010
11111111111111010
11111111111111010
11111111111111010
11111111111111010
11111111111111010
11111111111111010
11111111111111010
11111111111111010
11111111111111010
11111111111111010
11111111111111010
11111111111111010
11111111111111010
11111111111111010
11111111111111010
11111111111111010
11111111111111010
11111111111111010
11111111111111010
11111111111111010
11111111111111010
11111111111111010
11111111111111010
11111111111111010
11111111111111010
11111111111111010
11111111111111010
11111111111111010
11111111111111010
11111111111111010
11111111111111010
11111111111111010
11111111111111010
11111111111111010
11111111111111010
11111111111111010
11111111111111010
11111111111111010
11111111111111010
11111111111111010
11111111111111010
11111111111111010
11111111111111010
11111111111111010
11111111111111010
11111111111111010
11111111111111010
11111111111111010
11111111111111010
11111111111111010
11111111111111010
11111111111111010
11111111111111010
11111111111111010
11111111111111010
11111111111111010
11111111111111010
11111111111111010
11111111111111010
11111111111111010
11111111111111010
11111111111111010
11111111111111010
11111111111111010
11111111111111010
11111111111111010
11111111111111010
11111111111111010
11111111111111010
11111111111111010
11111111111111010
11111111111111010
11111111111111010
11111111111111010
11111111111111010
11111111111111010
11111111111111010
11111111111111010
11111111111111010
11111111111111010
11111111111111010
11111111111111010
11111111111111010
11111111111111010
11111111111111010
11111111111111010
11111111111111010
11111111111111010
11111111111111010
11111111111111010
11111111111111010
11111111111111010
11111111111111010
11111111111111010
11111111111111010
11111111111111010
11111111111111010
11111111111111010
11111111111111010
11111111111111010
11111111111111010
11111111111111010
11111111111111010
11111111111111010
11111111111111010
11111111111111010
11111111111111010
11111111111111010
11111111111111010
11111111111111010
11111111111111010
11111111111111010
11111111111111010
11111111111111010
11111111111111010
11111111111111010
11111111111111010
11111111111111010
11111111111111010
11111111111111010
11111111111111010
11111111111111010
11111111111111010
11111111111111010
11111111111111010
11111111111111010
11111111111111010
11111111111111010
11111111111111010
11111111111111010
11111111111111010
11111111111111010
11111111111111010
11111111111111010
11111111111111010
11111111111111010
11111111111111010
11111111111111010
11111111111111010
11111111111111010
11111111111111010
11111111111111010
11111111111111010
11111111111111010
11111111111111010
11111111111111010
11111111111111010
11111111111111010
11111111111111010
11111111111111010
11111111111111010
11111111111111010
11111111111111010
11111111111111010
11111111111111010
11111111111111010
11111111111111010
11111111111111010
11111111111111010
11111111111111010
11111111111111010
11111111111111010
11111111111111010
11111111111111010
11111111111111010
11111111111111010
11111111111111010
11111111111111010
11111111111111010
11111111111111010
11111111111111010
11111111111111010
11111111111111010
11111111111111010
11111111111111010
11111111111111010
11111111111111010
11111111111111010
11111111111111010
11111111111111010
11111111111111010
11111111111111010
11111111111111010
11111111111111010
11111111111111010
11111111111111010
11111111111111010
11111111111111010
11111111111111010
11111111111111010
11111111111111010
11111111111111010
11111111111111010
11111111111111010
11111111111111010
11111111111111010
11111111111111010
11111111111111010
11111111111111010
11111111111111010
11111111111111010
11111111111111010
11111111111111010
11111111111111010
11111111111111010
11111111111111010
11111111111111010
11111111111111010
11111111111111010
11111111111111010
11111111111111010
11111111111111010
11111111111111010
11111111111111010
11111111111111010
11111111111111010
11111111111111010
11111111111111010
11111111111111010
11111111111111010
11111111111111010
11111111111111010
11111111111111010
11111111111111010
11111111111111010
11111111111111010
11111111111111010
11111111111111010
11111111111111010
11111111111111010
11111111111111010
11111111111111010
11111111111111010
11111111111111010
11111111111111010
11111111111111010
11111111111111010
11111111111111010
11111111111111010
11111111111111010
11111111111111010
11111111111111010
11111111111111010
11111111111111010
11111111111111010
11111111111111010
11111111111111010
11111111111111010
11111111111111010
11111111111111010
11111111111111010
11111111111111010
11111111111111010
11111111111111010
11111111111111010
11111111111111010
11111111111111010
11111111111111010
11111111111111010
11111111111111010
11111111111111010
11111111111111010
11111111111111010
11111111111111010
11111111111111010
11111111111111010
11111111111111010
11111111111111010
11111111111111010
11111111111111010
11111111111111010
11111111111111010
11111111111111010
11111111111111010
11111111111111010
11111111111111010
11111111111111010
11111111111111010
11111111111111010
11111111111111010
11111111111111010
11111111111111010
11111111111111010
11111111111111010
11111111111111010
11111111111111010
11111111111111010
11111111111111010
11111111111111010
11111111111111010
11111111111111010
11111111111111010
11111111111111010
11111111111111010
11111111111111010
11111111111111010
11111111111111010
11111111111111010
11111111111111010
11111111111111010
11111111111111010
11111111111111010
11111111111111010
11111111111111010
11111111111111010
11111111111111010
11111111111111010
11111111111111010
11111111111111010
11111111111111010
11111111111111010
11111111111111010
11111111111111010
11111111111111010
11111111111111010
11111111111111010
11111111111111010
11111111111111010
11111111111111010
11111111111111010
11111111111111010
11111111111111010
11111111111111010
11111111111111010
11111111111111010
11111111111111010
11111111111111010
11111111111111010
11111111111111010
11111111111111010
11111111111111010
11111111111111010
11111111111111010
11111111111111010
11111111111111010
11111111111111010
11111111111111010
11111111111111010
11111111111111010
11111111111111010
11111111111111010
11111111111111010
11111111111111010
11111111111111010
11111111111111010
11111111111111010
11111111111111010
11111111111111010
11111111111111010
11111111111111010
11111111111111010
11111111111111010
11111111111111010
11111111111111010
11111111111111010
11111111111111010
11111111111111010
11111111111111010
11111111111111010
11111111111111010
11111111111111010
11111111111111010
11111111111111010
11111111111111010
11111111111111010
11111111111111010
11111111111111010
11111111111111010
11111111111111010
11111111111111010
11111111111111010
11111111111111010
11111111111111010
11111111111111010
11111111111111010
11111111111111010
11111111111111010
11111111111111010
11111111111111010
11111111111111010
11111111111111010
11111111111111010
11111111111111010
11111111111111010
11111111111111010
11111111111111010
11111111111111010
11111111111111010
11111111111111010
11111111111111010
11111111111111010
11111111111111010
11111111111111010
11111111111111010
11111111111111010
11111111111111010
11111111111111010
11111111111111010
11111111111111010
11111111111111010
11111111111111010
11111111111111010
11111111111111010
11111111111111010
11111111111111010
11111111111111010
11111111111111010
11111111111111010
11111111111111010
11111111111111010
11111111111111010
11111111111111010
11111111111111010
11111111111111010
11111111111111010
11111111111111010
11111111111111010
11111111111111010
11111111111111010
11111111111111010
11111111111111010
11111111111111010
11111111111111010
11111111111111010
11111111111111010
11111111111111010
11111111111111010
11111111111111010
11111111111111010
11111111111111010
11111111111111010
11111111111111010
11111111111111010
11111111111111010
11111111111111010
11111111111111010
11111111111111010
11111111111111010
11111111111111010
11111111111111010
11111111111111010
11111111111111010
11111111111111010
11111111111111010
11111111111111010
11111111111111010
11111111111111010
11111111111111010
11111111111111010
11111111111111010
11111111111111010
11111111111111010
11111111111111010
11111111111111010
11111111111111010
11111111111111010
11111111111111010
11111111111111010
11111111111111010
11111111111111010
11111111111111010
11111111111111010
11111111111111010
11111111111111010
11111111111111010
11111111111111010
11111111111111010
11111111111111010
11111111111111010
11111111111111010
11111111111111010
11111111111111010
11111111111111010
11111111111111010
11111111111111010
11111111111111010
11111111111111010
11111111111111010
11111111111111010
11111111111111010
11111111111111010
11111111111111010
11111111111111010
11111111111111010
11111111111111010
11111111111111010
11111111111111010
11111111111111010
11111111111111010
11111111111111010
11111111111111010
11111111111111010
11111111111111010
11111111111111010
11111111111111010
11111111111111010
11111111111111010
11111111111111010
11111111111111010
11111111111111010
11111111111111010
11111111111111010
11111111111111010
11111111111111010
11111111111111010
11111111111111010
11111111111111010
11111111111111010
11111111111111010
11111111111111010
11111111111111010
11111111111111010
11111111111111010
11111111111111010
11111111111111010
11111111111111010
11111111111111010
11111111111111010
11111111111111010
11111111111111010
11111111111111010
11111111111111010
11111111111111010
11111111111111010
11111111111111010
11111111111111010
11111111111111010
11111111111111010
11111111111111010
11111111111111010
11111111111111010
11111111111111010
11111111111111010
11111111111111010
11111111111111010
11111111111111010
11111111111111010
11111111111111010
11111111111111010
11111111111111010
11111111111111010
11111111111111010
11111111111111010
11111111111111010
11111111111111010
11111111111111010
11111111111111010
11111111111111010
11111111111111010
11111111111111010
11111111111111010
11111111111111010
11111111111111010
11111111111111010
11111111111111010
11111111111111010
11111111111111010
11111111111111010
11111111111111010
11111111111111010
11111111111111010
11111111111111010
11111111111111010
11111111111111010
11111111111111010
11111111111111010
11111111111111010
11111111111111010
11111111111111010
11111111111111010
11111111111111010
11111111111111010
11111111111111010
11111111111111010
11111111111111010
11111111111111010
11111111111111010
11111111111111010
11111111111111010
11111111111111010
11111111111111010
11111111111111010
11111111111111010
11111111111111010
11111111111111010
11111111111111010
11111111111111010
11111111111111010
11111111111111010
11111111111111010
11111111111111010
11111111111111010
11111111111111010
11111111111111010
11111111111111010
11111111111111010
11111111111111010
11111111111111010
11111111111111010
11111111111111010
11111111111111010
11111111111111010
11111111111111010
11111111111111010
11111111111111010
11111111111111010
11111111111111010
11111111111111010
11111111111111010
11111111111111010
11111111111111010
